000000:C029
000001:CFFE
000002:CFFD
000003:CFFC
000004:CFFB
000005:C052
000006:CFF9
000007:CFF8
000008:CFF7
000009:CFF6
00000A:CFF5
00000B:CFF4
00000C:CFF3
00000D:CFF2
00000E:CFF1
00000F:CFF0
000010:CFEF
000011:CFEE
000012:CFED
000013:2710
000014:03E8
000015:0064
000016:000A
000017:0001
000018:1000
000019:0100
00001A:0010
00001B:0001
00001C:7246
00001D:6B65
00001E:6575
00001F:736E
000020:2069
000021:003A
000022:6425
000023:4820
000024:007A
000025:C080
000026:0002
000027:00B8
000028:004A
000029:0000
00002A:94F8
00002B:27EE
00002C:BBEC
00002D:BFE5
00002E:E1F8
00002F:B7A4
000030:7FA7
000031:BFA4
000032:BDF1
000033:BDE1
000034:E08D
000035:E0A2
000036:93ED
000037:958A
000038:F7E9
000039:E880
00003A:E6A0
00003B:93ED
00003C:958A
00003D:F7E9
00003E:E4EC
00003F:E0F0
000040:9185
000041:9195
000042:9700
000043:F061
000044:91A5
000045:91B5
000046:9005
000047:9015
000048:01BF
000049:01F0
00004A:9005
00004B:920D
00004C:9701
00004D:F7E1
00004E:01FB
00004F:CFF0
000050:E0E0
000051:BBE3
000052:BBE4
000053:BBE5
000054:EDEF
000055:BFED
000056:EBC0
000057:C072
000058:920A
000059:921A
00005A:92FA
00005B:936A
00005C:937A
00005D:938A
00005E:939A
00005F:93AA
000060:93BA
000061:93EA
000062:93FA
000063:B7EF
000064:93EA
000065:97A0
000066:D2B8
000067:91E0
000068:00B0
000069:91F0
00006A:00B1
00006B:9160
00006C:00B2
00006D:9170
00006E:00B3
00006F:93E0
000070:00B4
000071:93F0
000072:00B5
000073:9360
000074:00B6
000075:9370
000076:00B7
000077:E0E0
000078:93E0
000079:00B0
00007A:93E0
00007B:00B1
00007C:93E0
00007D:00B2
00007E:93E0
00007F:00B3
000080:D2A3
000081:D2A2
000082:D096
000083:E3E8
000084:E0F0
000085:D2A1
000086:D0CD
000087:D29C
000088:E0E1
000089:93EA
00008A:D08E
00008B:2FEC
00008C:93EA
00008D:E4E4
00008E:E0F0
00008F:D297
000090:91E0
000091:00B4
000092:91F0
000093:00B5
000094:9160
000095:00B6
000096:9170
000097:00B7
000098:D2DA
000099:E084
00009A:D248
00009B:9627
00009C:2FEC
00009D:93EA
00009E:D0A8
00009F:96A0
0000A0:91E9
0000A1:BFEF
0000A2:91F9
0000A3:91E9
0000A4:91B9
0000A5:91A9
0000A6:9199
0000A7:9189
0000A8:9179
0000A9:9169
0000AA:90F9
0000AB:9019
0000AC:9009
0000AD:9518
0000AE:E0E1
0000AF:BBEB
0000B0:E0E0
0000B1:BBEA
0000B2:BBE8
0000B3:EFEF
0000B4:BBE7
0000B5:9508
0000B6:E0E0
0000B7:BDEF
0000B8:E0E5
0000B9:BDEE
0000BA:D264
0000BB:E0E0
0000BC:BDE5
0000BD:BDE4
0000BE:BDEB
0000BF:BDEA
0000C0:BDE9
0000C1:BDE8
0000C2:E8E0
0000C3:BFE9
0000C4:9508
0000C5:E8E0
0000C6:BDE6
0000C7:E0E0
0000C8:BDE6
0000C9:9508
0000CA:DFFA
0000CB:DFE2
0000CC:DFE9
0000CD:E1E0
0000CE:93EA
0000CF:D0A2
0000D0:E8E0
0000D1:B9E8
0000D2:9478
0000D3:99C8
0000D4:C007
0000D5:EBA0
0000D6:D28E
0000D7:5FEF
0000D8:4FFF
0000D9:4F6F
0000DA:4F7F
0000DB:D28E
0000DC:9BC8
0000DD:CFFE
0000DE:CFF4
0000DF:CFFF
0000E0:E0FF
0000E1:95FA
0000E2:F7F1
0000E3:9508
0000E4:B3A7
0000E5:70AF
0000E6:BBA7
0000E7:9AC1
0000E8:98C0
0000E9:DFF6
0000EA:9AC2
0000EB:DFF4
0000EC:B3A6
0000ED:98C2
0000EE:DFF1
0000EF:9AC2
0000F0:DFEF
0000F1:98C2
0000F2:FDA7
0000F3:CFF5
0000F4:9508
0000F5:7FA0
0000F6:2BAB
0000F7:BBA8
0000F8:9AC2
0000F9:DFE6
0000FA:98C2
0000FB:DFE4
0000FC:9508
0000FD:98C1
0000FE:B3A7
0000FF:6FA7
000100:BBA7
000101:B3B8
000102:70BF
000103:81A8
000104:DFF0
000105:81A8
000106:95A2
000107:DFED
000108:9AC1
000109:C092
00010A:9AC2
00010B:DFD4
00010C:B3E6
00010D:98C2
00010E:DFD1
00010F:7FE0
000110:9508
000111:DFCE
000112:DFF7
000113:2FAE
000114:DFF5
000115:98C1
000116:95E2
000117:2BEA
000118:9508
000119:DFCA
00011A:81E8
00011B:54E8
00011C:81E0
00011D:81A9
00011E:0FEA
00011F:D20A
000120:8039
000121:8028
000122:C02F
000123:DFC0
000124:E0E2
000125:D204
000126:DFBD
000127:E0EC
000128:D201
000129:DFBA
00012A:E0E1
00012B:D1FE
00012C:E0E0
00012D:2E2E
00012E:2E3E
00012F:9508
000130:93EF
000131:93FF
000132:81A8
000133:9468
000134:30AA
000135:F019
000136:94E8
000137:1435
000138:F028
000139:9423
00013A:D1E9
00013B:922A
00013C:DFDC
00013D:F036
00013E:9433
00013F:DFA4
000140:9AC0
000141:81A8
000142:93AA
000143:DFB9
000144:91FF
000145:91EF
000146:C055
000147:931A
000148:81A9
000149:91ED
00014A:83A9
00014B:2F1E
00014C:30E0
00014D:F019
00014E:931A
00014F:DFE0
000150:CFF7
000151:8118
000152:9622
000153:9508
000154:931A
000155:81E9
000156:81FA
000157:9631
000158:83E9
000159:83FA
00015A:9731
00015B:91E4
00015C:2F1E
00015D:30E0
00015E:F019
00015F:931A
000160:DFCF
000161:CFF3
000162:C065
000163:27AA
000164:27BB
000165:9711
000166:F7F1
000167:9508
000168:98C1
000169:B3A7
00016A:6FA7
00016B:BBA7
00016C:B3B8
00016D:70BF
00016E:81A8
00016F:DF85
000170:9AC1
000171:C02A
000172:98C2
000173:98C0
000174:8058
000175:81E8
000176:58E0
000177:93E0
000178:00BA
000179:81E8
00017A:54E0
00017B:93E0
00017C:00BB
00017D:D1AE
00017E:D1AD
00017F:D1AC
000180:DFE2
000181:E2E0
000182:93EA
000183:DFE4
000184:DFDE
000185:E2E8
000186:D1A3
000187:DFDB
000188:E0E4
000189:D1A0
00018A:DFD8
00018B:E8E5
00018C:D19D
00018D:DFD5
00018E:B3A7
00018F:70AF
000190:BBA7
000191:9AC1
000192:DF7E
000193:30E5
000194:F011
000195:E0E0
000196:C005
000197:DF4C
000198:E0E6
000199:D190
00019A:DF88
00019B:E0E1
00019C:9621
00019D:9508
00019E:931A
00019F:81A9
0001A0:5FAE
0001A1:91EC
0001A2:30E0
0001A3:F0F9
0001A4:81A9
0001A5:5FAD
0001A6:91EC
0001A7:2F1E
0001A8:30E0
0001A9:F039
0001AA:3012
0001AB:F0B0
0001AC:5011
0001AD:2FE1
0001AE:81A9
0001AF:5FAD
0001B0:93EC
0001B1:81A9
0001B2:5FAE
0001B3:91EC
0001B4:5FEF
0001B5:93EC
0001B6:50E1
0001B7:81AA
0001B8:83A0
0001B9:81A9
0001BA:D1A6
0001BB:23FF
0001BC:F02A
0001BD:91ED
0001BE:91FD
0001BF:9631
0001C0:93FE
0001C1:93EE
0001C2:C005
0001C3:81A9
0001C4:EFEF
0001C5:EFFF
0001C6:93ED
0001C7:93FC
0001C8:8118
0001C9:9623
0001CA:9508
0001CB:9726
0001CC:D1AB
0001CD:E010
0001CE:85AC
0001CF:E0E0
0001D0:E0F0
0001D1:93ED
0001D2:93FC
0001D3:89E8
0001D4:89F9
0001D5:9631
0001D6:8BE8
0001D7:8BF9
0001D8:9731
0001D9:91E4
0001DA:2F2E
0001DB:30E0
0001DC:F409
0001DD:C100
0001DE:2FE1
0001DF:30E0
0001E0:F431
0001E1:3225
0001E2:F411
0001E3:E011
0001E4:C001
0001E5:D14A
0001E6:C0F6
0001E7:30E1
0001E8:F4A1
0001E9:3225
0001EA:F411
0001EB:D144
0001EC:C0EF
0001ED:E012
0001EE:E040
0001EF:E000
0001F0:322D
0001F1:F411
0001F2:E001
0001F3:C0E9
0001F4:322B
0001F5:F411
0001F6:E24B
0001F7:C0E5
0001F8:3220
0001F9:F411
0001FA:E240
0001FB:C0E1
0001FC:C002
0001FD:30E2
0001FE:F439
0001FF:E050
000200:E013
000201:3320
000202:F411
000203:6800
000204:C0D8
000205:C003
000206:30E3
000207:F009
000208:C0D4
000209:3320
00020A:F010
00020B:332A
00020C:F008
00020D:C008
00020E:2FE5
00020F:E0AA
000210:D145
000211:2F5E
000212:2FE2
000213:53E0
000214:0F5E
000215:C0C7
000216:2FE2
000217:36E3
000218:F431
000219:D11D
00021A:85EF
00021B:81A4
00021C:93AA
00021D:D11D
00021E:C0BD
00021F:37E3
000220:F441
000221:D115
000222:D11E
000223:91EC
000224:83EE
000225:93EA
000226:D0E4
000227:2F1E
000228:C00B
000229:37E0
00022A:F469
00022B:D10B
00022C:D114
00022D:D133
00022E:D115
00022F:D117
000230:D0F6
000231:D0E2
000232:2F1E
000233:6008
000234:6002
000235:770F
000236:E030
000237:C030
000238:36E4
000239:F011
00023A:36E9
00023B:F411
00023C:6004
00023D:C002
00023E:37E5
00023F:F429
000240:E2E6
000241:E0F0
000242:D101
000243:E015
000244:C00B
000245:35E8
000246:F411
000247:6008
000248:C003
000249:37E8
00024A:F009
00024B:C090
00024C:E3E0
00024D:E0F0
00024E:D0F5
00024F:E014
000250:FF02
000251:C012
000252:D0E4
000253:D0ED
000254:D10C
000255:D0F4
000256:85AB
000257:23AA
000258:F42A
000259:85EA
00025A:85FB
00025B:D0F6
00025C:D0ED
00025D:E24D
00025E:3040
00025F:F011
000260:5F1F
000261:C001
000262:7F0B
000263:C004
000264:D0D2
000265:D0DB
000266:D0FA
000267:D0E2
000268:FD00
000269:C010
00026A:1715
00026B:F470
00026C:FF07
00026D:C008
00026E:FF02
00026F:C004
000270:7F0B
000271:2F24
000272:5011
000273:C001
000274:E320
000275:C001
000276:E220
000277:D0B8
000278:5051
000279:CFF0
00027A:2F31
00027B:FF01
00027C:C012
00027D:3030
00027E:F079
00027F:FF03
000280:C004
000281:D0C5
000282:9125
000283:D0C0
000284:C003
000285:81AE
000286:912D
000287:83AE
000288:D0A7
000289:3050
00028A:F009
00028B:5051
00028C:5031
00028D:CFEF
00028E:C044
00028F:E320
000290:D0B6
000291:D0DD
000292:87E8
000293:87F9
000294:D0B2
000295:9632
000296:D0AD
000297:85E8
000298:85F9
000299:85AA
00029A:85BB
00029B:17AE
00029C:07BF
00029D:F048
00029E:5F2F
00029F:85A8
0002A0:85B9
0002A1:85EA
0002A2:85FB
0002A3:1BEA
0002A4:0BFB
0002A5:D0A4
0002A6:CFF0
0002A7:332A
0002A8:F028
0002A9:FF03
0002AA:C002
0002AB:5F29
0002AC:C001
0002AD:5D29
0002AE:FD04
0002AF:C019
0002B0:3321
0002B1:F420
0002B2:85A8
0002B3:85B9
0002B4:9711
0002B5:F409
0002B6:C009
0002B7:1753
0002B8:F010
0002B9:FF00
0002BA:C001
0002BB:C011
0002BC:E220
0002BD:FF07
0002BE:C00A
0002BF:E320
0002C0:6100
0002C1:FF02
0002C2:C006
0002C3:7F0B
0002C4:934A
0002C5:D075
0002C6:3050
0002C7:F009
0002C8:5051
0002C9:D066
0002CA:3050
0002CB:F009
0002CC:5051
0002CD:5031
0002CE:85A8
0002CF:85B9
0002D0:9712
0002D1:F008
0002D2:CFBC
0002D3:FF00
0002D4:C007
0002D5:3050
0002D6:F029
0002D7:5051
0002D8:E2E0
0002D9:93EA
0002DA:D060
0002DB:CFF9
0002DC:E010
0002DD:CEF5
0002DE:85AC
0002DF:D081
0002E0:D09E
0002E1:9662
0002E2:9508
0002E3:92FF
0002E4:2EF8
0002E5:9724
0002E6:D093
0002E7:D065
0002E8:30E0
0002E9:F419
0002EA:EFEF
0002EB:EFFF
0002EC:C01A
0002ED:2FAC
0002EE:5FAC
0002EF:0DAF
0002F0:2F1A
0002F1:D05B
0002F2:83EE
0002F3:E0E0
0002F4:83EF
0002F5:2FAC
0002F6:5FA8
0002F7:0DAF
0002F8:D068
0002F9:D02D
0002FA:931A
0002FB:E9EE
0002FC:E0F1
0002FD:D029
0002FE:2FEC
0002FF:5FE7
000300:93EA
000301:DEC9
000302:019F
000303:81AE
000304:E0E0
000305:93EC
000306:01F9
000307:D079
000308:9628
000309:90FF
00030A:9508
00030B:27BB
00030C:91A9
00030D:27EE
00030E:916D
00030F:2366
000310:F011
000311:95E3
000312:CFFB
000313:9508
000314:27AA
000315:27BB
000316:91E9
000317:91F9
000318:9005
000319:2000
00031A:F011
00031B:9611
00031C:CFFB
00031D:01FD
00031E:9508
00031F:ECE2
000320:BDED
000321:EFE7
000322:BDEC
000323:9508
000324:E0E0
000325:93EA
000326:9508
000327:93FA
000328:93EA
000329:9508
00032A:93EA
00032B:CDD1
00032C:DE36
00032D:E3E0
00032E:93EA
00032F:CE38
000330:932A
000331:85ED
000332:93EA
000333:85EF
000334:89F8
000335:9509
000336:9508
000337:85EF
000338:50E4
000339:87EF
00033A:9508
00033B:85ED
00033C:93EA
00033D:85EF
00033E:89F8
00033F:9509
000340:9508
000341:85AF
000342:5FAC
000343:9508
000344:83EE
000345:83FF
000346:9508
000347:81EE
000348:81FF
000349:9508
00034A:87EA
00034B:87FB
00034C:9508
00034D:2FAC
00034E:5FA6
00034F:0DAF
000350:91EC
000351:9508
000352:95F1
000353:95E1
000354:40F0
000355:9508
000356:2E0A
000357:1BAA
000358:E0B9
000359:C003
00035A:F408
00035B:0DA0
00035C:95A6
00035D:95E7
00035E:95BA
00035F:F7D1
000360:9508
000361:91ED
000362:91FC
000363:95AA
000364:9508
000365:91ED
000366:91FD
000367:916D
000368:917D
000369:9508
00036A:937E
00036B:936E
00036C:93FE
00036D:93EE
00036E:9508
00036F:9005
000370:91F4
000371:2DE0
000372:9508
000373:937A
000374:936A
000375:93FA
000376:93EA
000377:9508
000378:935A
000379:934A
00037A:933A
00037B:932A
00037C:931A
00037D:930A
00037E:9508
00037F:815D
000380:814C
000381:813B
000382:812A
000383:8119
000384:8108
000385:9508
